TRT-100700-MinMaxCalibration
images: 3c008081
/model.0/conv/Conv_output_0: 3f2e9d8a
/model.0/act/Sigmoid_output_0: 3c010204
/model.0/act/Mul_output_0: 3f2e9d8a
/model.1/conv/Conv_output_0: 3f71c315
/model.1/act/Sigmoid_output_0: 3c010204
/model.1/act/Mul_output_0: 3f4a7f63
/model.2/cv1/conv/Conv_output_0: 3f243ec6
/model.2/cv1/act/Sigmoid_output_0: 3c010204
/model.2/cv1/act/Mul_output_0: 3e89f32e
/model.22/m.0/m/m.1/cv1/conv/Conv_output_0: 3ddc8301
/model.23/Sub_output_0: 3bba4f0a
ONNXTRT_Broadcast_246_output: 3e010204
/model.23/Split_3_output_0: 3d0bb0dc
ONNXTRT_Broadcast_238_output: 3b810204
/model.23/Cos_output_0: 3c010204
/model.2/Split_output_0: 3e89f32e
/model.23/Split_1_output_1: 3f2f69b3
/model.23/cv4.1/cv4.1.2/Conv_output_0: 3c339474
/model.23/cv3.1/cv3.1.1/cv3.1.1.1/act/Sigmoid_output_0: 3c010204
/model.2/Split_output_1: 3e33c59c
/model.2/m.0/cv1/conv/Conv_output_0: 3e98b5b3
/model.2/m.0/cv1/act/Sigmoid_output_0: 3c010204
/model.2/m.0/cv1/act/Mul_output_0: 3e31d8c4
/model.2/m.0/cv2/conv/Conv_output_0: 3e8471f7
/model.2/m.0/cv2/act/Sigmoid_output_0: 3c010204
/model.2/m.0/cv2/act/Mul_output_0: 3e8471f7
/model.2/m.0/Add_output_0: 3ea91eea
/model.2/Concat_output_0: 3ea91eea
/model.2/cv2/conv/Conv_output_0: 3ed24b2a
/model.2/cv2/act/Sigmoid_output_0: 3c010204
/model.2/cv2/act/Mul_output_0: 3e2bb33e
/model.3/conv/Conv_output_0: 3e2491b1
/model.3/act/Sigmoid_output_0: 3c010204
/model.3/act/Mul_output_0: 3e2491b1
/model.4/cv1/conv/Conv_output_0: 3dee1aed
/model.4/cv1/act/Sigmoid_output_0: 3c010201
/model.4/cv1/act/Mul_output_0: 3dee1ae7
/model.23/cv3.2/cv3.2.1/cv3.2.1.0/act/Mul_output_0: 3e2a66f9
/model.23/dfl/Softmax_output_0: 3c00f15b
/model.23/cv3.2/cv3.2.1/cv3.2.1.1/act/Sigmoid_output_0: 3c010204
/model.23/Range_3_output_0: 3e9d3a75
ONNXTRT_ShapeShuffle_224_output: 3c010204
/model.23/Split_3_output_1: 3d193dbc
/model.4/Split_output_0: 3dee1ae7
/model.23/cv4.2/cv4.2.1/act/Mul_output_0: 3d903679
/model.23/Split_1_output_0: 3e2324de
/model.23/Add_10_output_0: 3f20fdc2
/model.4/Split_output_1: 3d94517e
/model.4/m.0/cv1/conv/Conv_output_0: 3de20d26
/model.4/m.0/cv1/act/Sigmoid_output_0: 3c0101fd
/model.4/m.0/cv1/act/Mul_output_0: 3de20d1a
/model.4/m.0/cv2/conv/Conv_output_0: 3e29bbbe
/model.4/m.0/cv2/act/Sigmoid_output_0: 3c010204
/model.4/m.0/cv2/act/Mul_output_0: 3e01acd1
/model.4/m.0/Add_output_0: 3e037fae
/model.4/Concat_output_0: 3e037fae
/model.4/cv2/conv/Conv_output_0: 3e057974
/model.4/cv2/act/Sigmoid_output_0: 3c010137
/model.4/cv2/act/Mul_output_0: 3dab547d
/model.5/conv/Conv_output_0: 3ddc7e33
/model.5/act/Sigmoid_output_0: 3c0101fb
/model.5/act/Mul_output_0: 3ddc7e24
/model.6/cv1/conv/Conv_output_0: 3dcd55f1
/model.6/cv1/act/Sigmoid_output_0: 3c010194
/model.6/cv1/act/Mul_output_0: 3db52e94
ONNXTRT_Broadcast_326_output: 3e810204
/model.22/m.0/m/m.0/cv1/conv/Conv_output_0: 3de4bd46
/model.23/cv4.2/cv4.2.1/act/Sigmoid_output_0: 3c00fdb3
/model.23/Expand_5_output_0: 3e1d3a75
/model.22/m.0/m/m.0/cv1/act/Sigmoid_output_0: 3c0101fe
/model.22/m.0/m/m.0/cv1/act/Mul_output_0: 3de4bd3a
/model.6/Split_output_0: 3db52e94
/model.23/Reshape_4_output_0: 3eff341a
/model.22/m.0/m/m.0/Add_output_0: 3dddfbcf
/model.23/Concat_5_output_0: 3eff341a
/model.6/Split_output_1: 3d9d8c3e
/model.6/m.0/cv1/conv/Conv_output_0: 3d813644
/model.6/m.0/cv2/conv/Conv_output_0: 3dce2723
/model.6/m.0/cv1/act/Sigmoid_output_0: 3c009e6b
/model.6/m.0/cv2/act/Sigmoid_output_0: 3c01010b
/model.6/m.0/cv1/act/Mul_output_0: 3d3a871b
/model.6/m.0/cv2/act/Mul_output_0: 3da84b32
/model.6/m.0/m/m.0/cv1/conv/Conv_output_0: 3dc2c5d6
/model.6/m.0/m/m.0/cv1/act/Sigmoid_output_0: 3c00fa30
/model.6/m.0/m/m.0/cv1/act/Mul_output_0: 3d869f34
/model.6/m.0/m/m.0/cv2/conv/Conv_output_0: 3dbc924e
/model.6/m.0/m/m.0/cv2/act/Sigmoid_output_0: 3c010112
/model.6/m.0/m/m.0/cv2/act/Mul_output_0: 3da8bd93
/model.6/m.0/m/m.0/Add_output_0: 3dc74b49
/model.6/m.0/m/m.1/cv1/conv/Conv_output_0: 3da725a1
/model.6/m.0/m/m.1/cv1/act/Sigmoid_output_0: 3c00fd8e
/model.6/m.0/m/m.1/cv1/act/Mul_output_0: 3d8f9edc
/model.6/m.0/m/m.1/cv2/conv/Conv_output_0: 3de64491
/model.6/m.0/m/m.1/cv2/act/Sigmoid_output_0: 3c0101ff
/model.6/m.0/m/m.1/cv2/act/Mul_output_0: 3de64488
/model.6/m.0/m/m.1/Add_output_0: 3df3cd15
/model.6/m.0/Concat_output_0: 3df3cd15
/model.6/m.0/cv3/conv/Conv_output_0: 3dc51dac
/model.6/m.0/cv3/act/Sigmoid_output_0: 3c0101a9
/model.6/m.0/cv3/act/Mul_output_0: 3db87a52
/model.6/Concat_output_0: 3db87a52
/model.6/cv2/conv/Conv_output_0: 3dc3ef39
/model.6/cv2/act/Sigmoid_output_0: 3c0101d7
/model.6/cv2/act/Mul_output_0: 3dc3b278
/model.7/conv/Conv_output_0: 3da7b4c7
/model.7/act/Sigmoid_output_0: 3c010102
/model.7/act/Mul_output_0: 3da7b377
/model.8/cv1/conv/Conv_output_0: 3dd715ab
/model.8/cv1/act/Sigmoid_output_0: 3c0101f7
/model.8/cv1/act/Mul_output_0: 3dd71595
/model.22/cv2/conv/Conv_output_0: 3e09f4ef
/model.23/cv2.2/cv2.2.1/act/Mul_output_0: 3e3427f2
/model.23/Reshape_13_output_0: 3e9f3e7d
ONNXTRT_ShapeShuffle_234_output: 3c010204
/model.22/m.0/cv2/act/Mul_output_0: 3e06eb44
/model.23/Unsqueeze_15_output_0: 3f204081
/model.8/Split_output_0: 3dd71595
ONNXTRT_Broadcast_278_output: 3ccaa525
/model.23/dfl/Reshape_output_0: 3e2324de
/model.23/dfl/conv/Conv_output_0: 3db0df76
/model.8/Split_output_1: 3dac0183
/model.8/m.0/cv1/conv/Conv_output_0: 3d8d5a76
/model.8/m.0/cv2/conv/Conv_output_0: 3da6a25d
/model.8/m.0/cv1/act/Sigmoid_output_0: 3c00fce6
/model.8/m.0/cv2/act/Sigmoid_output_0: 3c00fdcd
/model.8/m.0/cv1/act/Mul_output_0: 3d8d54db
/model.8/m.0/cv2/act/Mul_output_0: 3d90a3ca
/model.8/m.0/m/m.0/cv1/conv/Conv_output_0: 3d961b9b
/model.8/m.0/m/m.0/cv1/act/Sigmoid_output_0: 3c00fda9
/model.8/m.0/m/m.0/cv1/act/Mul_output_0: 3d900c31
/model.8/m.0/m/m.0/cv2/conv/Conv_output_0: 3d9b2ab1
/model.8/m.0/m/m.0/cv2/act/Sigmoid_output_0: 3c00ffd7
/model.8/m.0/m/m.0/cv2/act/Mul_output_0: 3d9b2813
/model.8/m.0/m/m.0/Add_output_0: 3db48d02
/model.8/m.0/m/m.1/cv1/conv/Conv_output_0: 3d96a21d
/model.8/m.0/m/m.1/cv1/act/Sigmoid_output_0: 3c00ff1c
/model.8/m.0/m/m.1/cv1/act/Mul_output_0: 3d969eb8
/model.8/m.0/m/m.1/cv2/conv/Conv_output_0: 3db43463
/model.8/m.0/m/m.1/cv2/act/Sigmoid_output_0: 3c01018d
/model.8/m.0/m/m.1/cv2/act/Mul_output_0: 3db433bb
/model.8/m.0/m/m.1/Add_output_0: 3dd64b33
/model.8/m.0/Concat_output_0: 3dd64b33
/model.8/m.0/cv3/conv/Conv_output_0: 3da24666
/model.8/m.0/cv3/act/Sigmoid_output_0: 3c01009b
/model.8/m.0/cv3/act/Mul_output_0: 3da244a0
/model.8/Concat_output_0: 3dd71595
/model.8/cv2/conv/Conv_output_0: 3dac4a0f
/model.8/cv2/act/Sigmoid_output_0: 3c010144
/model.8/cv2/act/Mul_output_0: 3dac490e
/model.9/cv1/conv/Conv_output_0: 3db88bbb
/model.9/cv1/act/Sigmoid_output_0: 3c0101a9
/model.9/cv1/act/Mul_output_0: 3db88b39
/model.9/m/MaxPool_output_0: 3db88b39
/model.9/m_1/MaxPool_output_0: 3db88b39
/model.9/m_2/MaxPool_output_0: 3db88b39
/model.9/Concat_output_0: 3db88b39
/model.9/cv2/conv/Conv_output_0: 3d9ca32a
/model.9/cv2/act/Sigmoid_output_0: 3c010009
/model.9/cv2/act/Mul_output_0: 3d9ca0c3
/model.10/cv1/conv/Conv_output_0: 3dd97bcd
/model.10/cv1/act/Sigmoid_output_0: 3c0101f9
/model.10/cv1/act/Mul_output_0: 3dd97bb9
/model.23/cv3.2/cv3.2.0/cv3.2.0.1/conv/Conv_output_0: 3dcb6a81
/model.23/cv3.1/cv3.1.2/Conv_output_0: 3eff341a
/model.23/Mul_output_0: 3c925399
/model.23/cv3.1/cv3.1.1/cv3.1.1.1/act/Mul_output_0: 3e4ace66
/model.23/cv3.1/cv3.1.1/cv3.1.1.0/act/Sigmoid_output_0: 3c010204
/model.23/Reshape_1_output_0: 3c339474
/model.10/Split_output_0: 3dcbfc7b
/model.22/m.0/m/m.0/cv2/act/Mul_output_0: 3de170ba
/model.23/cv3.2/cv3.2.1/cv3.2.1.1/act/Mul_output_0: 3e5c0819
/model.23/Concat_3_output_0: 3ce50177
/model.10/Split_output_1: 3dd97bb9
/model.23/Sin_output_0: 3c010204
/model.23/cv2.2/cv2.2.1/act/Sigmoid_output_0: 3c010204
/model.10/m/m.0/attn/qkv/conv/Conv_output_0: 3da39092
/model.23/cv4.2/cv4.2.2/Conv_output_0: 3ca60994
ONNXTRT_Broadcast_318_output: 3b810204
/model.23/cv3.2/cv3.2.1/cv3.2.1.1/conv/Conv_output_0: 3e5c0819
/model.23/cv3.2/cv3.2.1/cv3.2.1.0/conv/Conv_output_0: 3e2a66f9
/model.23/Concat_6_output_0: 3e831c41
/model.23/Add_9_output_0: 3d13fda7
ONNXTRT_ShapeShuffle_241_output: 0
/model.22/m.0/cv2/act/Sigmoid_output_0: 3c010204
ONNXTRT_Broadcast_375_output: 3c810204
/model.23/Concat_26_output_0: 3f204081
/model.23/Mul_8_output_0: 40a3bdb2
/model.23/Unsqueeze_13_output_0: 3e1d3a75
/model.22/m.0/m/m.0/cv2/act/Sigmoid_output_0: 3c0101fd
ONNXTRT_Broadcast_397_output: 3e810204
/model.23/Reshape_11_output_0: 3e9f3e7d
/model.23/Transpose_1_output_0: 3e810204
/model.10/m/m.0/attn/Reshape_output_0: 3da39092
output0: 40a3bdb2
/model.23/cv3.2/cv3.2.0/cv3.2.0.1/act/Mul_output_0: 3dcb6a55
/model.22/m.0/m/m.1/cv1/act/Mul_output_0: 3ddc82f2
/model.23/Constant_71_output_0_output: 3c810204
/model.23/Concat_27_output_0: 3e810204
ONNXTRT_ShapeShuffle_321_output: 0
/model.10/m/m.0/attn/Split_output_0: 3d81fc08
/model.23/Constant_8_output_0_output: 3ccaa525
/model.23/Mul_6_output_0: 3d08c4df
/model.23/Concat_24_output_0: 3e1d3a75
/model.10/m/m.0/attn/Split_output_1: 3d8efb0d
/model.23/Div_output_0: 3d193dbc
/model.23/Squeeze_2_output_0_output: 3e810204
/model.23/Add_8_output_0: 3e810204
/model.10/m/m.0/attn/Split_output_2: 3da39092
/model.10/m/m.0/attn/Transpose_output_0: 3d81fc08
/model.10/m/m.0/attn/Reshape_2_output_0: 3da39092
/model.10/m/m.0/attn/MatMul_output_0: 3f860dbb
/model.10/m/m.0/attn/pe/conv/Conv_output_0: 3d934bc2
/model.10/m/m.0/attn/Constant_6_output_0_output: 3ab671d7
ONNXTRT_Broadcast_output: 3ab671d7
/model.10/m/m.0/attn/Mul_1_output_0: 3e3d949a
/model.10/m/m.0/attn/Softmax_output: 3bf86594
/model.10/m/m.0/attn/Softmax_output_0: 3bf86594
/model.23/dfl/Reshape_1_output_0: 3db0df76
/model.23/Split_2_output_1: 3d9d383e
/model.10/m/m.0/attn/Transpose_1_output_0: 3bf86594
/model.10/m/m.0/attn/MatMul_1_output_0: 3d6cd62f
/model.10/m/m.0/attn/Reshape_1_output_0: 3d6cd62f
/model.10/m/m.0/attn/Add_output_0: 3d960070
/model.10/m/m.0/attn/proj/conv/Conv_output_0: 3d0e433c
/model.10/m/m.0/Add_output_0: 3dbc9ff6
/model.10/m/m.0/ffn/ffn.0/conv/Conv_output_0: 3db53254
/model.10/m/m.0/ffn/ffn.0/act/Sigmoid_output_0: 3c0100b8
/model.10/m/m.0/ffn/ffn.0/act/Mul_output_0: 3da3aa75
/model.10/m/m.0/ffn/ffn.1/conv/Conv_output_0: 3d6cb916
/model.10/m/m.0/Add_1_output_0: 3db48869
/model.10/Concat_output_0: 3dcbfc7b
/model.10/cv2/conv/Conv_output_0: 3ddadc02
/model.10/cv2/act/Sigmoid_output_0: 3c0101fa
/model.10/cv2/act/Mul_output_0: 3ddadbf1
/model.11/Resize_output_0: 3ddadbf1
/model.12/Concat_output_0: 3ddadbf1
/model.13/cv1/conv/Conv_output_0: 3de2e56e
/model.13/cv1/act/Sigmoid_output_0: 3c0101a0
/model.13/cv1/act/Mul_output_0: 3db715f2
/model.23/cv4.2/cv4.2.1/conv/Conv_output_0: 3e031ece
/model.23/Transpose_output_0: 3f204081
/model.23/Mul_5_output_0: 3d009da0
/model.23/Sigmoid_1_output_0: 3bfdfae0
/model.23/cv2.2/cv2.2.1/conv/Conv_output_0: 3e3427f2
/model.23/cv3.2/cv3.2.0/cv3.2.0.0/act/Mul_output_0: 3df2f821
/model.13/Split_output_0: 3db715f2
/model.23/cv2.2/cv2.2.0/act/Mul_output_0: 3dd427f8
/model.23/cv4.2/cv4.2.0/act/Mul_output_0: 3dcfcba5
/model.23/cv3.2/cv3.2.0/cv3.2.0.0/act/Sigmoid_output_0: 3c010201
/model.13/Split_output_1: 3d77bac1
/model.13/m.0/cv1/conv/Conv_output_0: 3dab0d45
/model.13/m.0/cv1/act/Sigmoid_output_0: 3c01011c
/model.13/m.0/cv1/act/Mul_output_0: 3da96327
/model.13/m.0/cv2/conv/Conv_output_0: 3e06b158
/model.13/m.0/cv2/act/Sigmoid_output_0: 3c0101fd
/model.13/m.0/cv2/act/Mul_output_0: 3de34163
/model.13/m.0/Add_output_0: 3df965b1
/model.13/Concat_output_0: 3df965b1
/model.13/cv2/conv/Conv_output_0: 3de8039c
/model.13/cv2/act/Sigmoid_output_0: 3c0101ad
/model.13/cv2/act/Mul_output_0: 3db956b3
/model.14/Resize_output_0: 3db956b3
/model.15/Concat_output_0: 3db956b3
/model.16/cv1/conv/Conv_output_0: 3dcb3078
/model.16/cv1/act/Sigmoid_output_0: 3c0100fa
/model.16/cv1/act/Mul_output_0: 3da740ca
/model.23/cv3.2/cv3.2.0/cv3.2.0.0/conv/Conv_output_0: 3e0abc59
/model.23/cv4.2/cv4.2.0/conv/Conv_output_0: 3dcfcbc8
/model.23/cv4.2/cv4.2.0/act/Sigmoid_output_0: 3c0101ef
/model.22/cv2/act/Mul_output_0: 3e09f4ef
/model.23/cv2.2/cv2.2.0/act/Sigmoid_output_0: 3c0101f4
/model.22/cv2/act/Sigmoid_output_0: 3c010204
/model.16/Split_output_0: 3da740ca
/model.22/Concat_output_0: 3e10b3c2
/model.22/m.0/cv3/act/Mul_output_0: 3e10b3c2
/model.22/m.0/cv3/act/Sigmoid_output_0: 3c010204
/model.16/Split_output_1: 3d58826a
/model.16/m.0/cv1/conv/Conv_output_0: 3e3af5dc
/model.16/m.0/cv1/act/Sigmoid_output_0: 3c00edb2
/model.16/m.0/cv1/act/Mul_output_0: 3d6e48f0
/model.16/m.0/cv2/conv/Conv_output_0: 3ece69ed
/model.16/m.0/cv2/act/Sigmoid_output_0: 3c010204
/model.16/m.0/cv2/act/Mul_output_0: 3e01b132
/model.16/m.0/Add_output_0: 3e0b5003
/model.16/Concat_output_0: 3e0b5003
/model.16/cv2/conv/Conv_output_0: 3e7d83a0
/model.16/cv2/act/Sigmoid_output_0: 3c01017d
/model.16/cv2/act/Mul_output_0: 3db22d8d
/model.17/conv/Conv_output_0: 3e052d59
/model.23/Reshape_15_output_0: 3e9f3e7d
/model.22/m.0/m/m.1/Add_output_0: 3e331cbf
/model.23/cv4.0/cv4.0.0/conv/Conv_output_0: 3e6638cf
/model.23/cv2.0/cv2.0.0/conv/Conv_output_0: 3e17ef49
/model.23/cv3.0/cv3.0.0/cv3.0.0.0/conv/Conv_output_0: 3da86538
/model.17/act/Sigmoid_output_0: 3c010204
/model.23/Unsqueeze_9_output_0: 3e9f3e7d
/model.23/cv4.0/cv4.0.0/act/Sigmoid_output_0: 3c010204
/model.23/cv2.0/cv2.0.0/act/Sigmoid_output_0: 3c010049
/model.23/cv3.0/cv3.0.0/cv3.0.0.0/act/Sigmoid_output_0: 3c010077
/model.17/act/Mul_output_0: 3e052d59
/model.23/cv4.0/cv4.0.0/act/Mul_output_0: 3e1a3066
/model.23/Concat_19_output_0: 3e9f3e7d
/model.23/cv2.0/cv2.0.0/act/Mul_output_0: 3d9ed4f0
/model.23/cv3.0/cv3.0.0/cv3.0.0.0/act/Mul_output_0: 3da0c63c
/model.18/Concat_output_0: 3e052d59
/model.23/cv4.0/cv4.0.1/conv/Conv_output_0: 3e50163a
/model.22/m.0/cv3/conv/Conv_output_0: 3e10b3c2
/model.22/m.0/Concat_output_0: 3e331cbf
/model.22/m.0/m/m.1/cv2/act/Mul_output_0: 3de1cb8b
/model.23/cv2.0/cv2.0.1/conv/Conv_output_0: 3e15f6a4
/model.23/cv3.0/cv3.0.0/cv3.0.0.1/conv/Conv_output_0: 3dfdf607
/model.19/cv1/conv/Conv_output_0: 3e129eba
/model.23/cv4.0/cv4.0.1/act/Sigmoid_output_0: 3c00f249
/model.23/cv2.0/cv2.0.1/act/Sigmoid_output_0: 3c0101f7
/model.23/cv3.0/cv3.0.0/cv3.0.0.1/act/Sigmoid_output_0: 3c010203
/model.19/cv1/act/Sigmoid_output_0: 3c0101e2
/model.23/cv4.0/cv4.0.1/act/Mul_output_0: 3d769391
/model.23/cv2.0/cv2.0.1/act/Mul_output_0: 3dd76619
/model.23/cv3.0/cv3.0.0/cv3.0.0.1/act/Mul_output_0: 3dfdf605
/model.19/cv1/act/Mul_output_0: 3dc8639a
/model.23/cv4.0/cv4.0.2/Conv_output_0: 3ce50177
/model.23/cv2.0/cv2.0.2/Conv_output_0: 3e2324de
/model.23/cv3.0/cv3.0.1/cv3.0.1.0/conv/Conv_output_0: 3e630e16
/model.23/Constant_7_output_0_output: 3b010204
/model.23/Sigmoid_output_0: 3bfad00c
/model.23/Unsqueeze_10_output_0: 3e9f3e7d
/model.23/cv2.1/cv2.1.2/Conv_output_0: 3def646d
/model.23/cv3.1/cv3.1.1/cv3.1.1.1/conv/Conv_output_0: 3e61dd6f
/model.22/Split_output_1: 3de87a7a
/model.19/Split_output_0: 3dc8639a
/model.22/m.0/m/m.1/cv2/act/Sigmoid_output_0: 3c0101fd
/model.23/cv2.2/cv2.2.0/conv/Conv_output_0: 3dd42812
/model.23/Sub_1_output_0: 3d993dbc
/model.19/Split_output_1: 3db32017
/model.23/Reshape_output_0: 3ce50177
/model.23/cv3.0/cv3.0.1/cv3.0.1.0/act/Sigmoid_output_0: 3c010204
/model.19/m.0/cv1/conv/Conv_output_0: 3e52e33a
/model.23/cv3.0/cv3.0.1/cv3.0.1.0/act/Mul_output_0: 3e263cf6
/model.19/m.0/cv1/act/Sigmoid_output_0: 3c0101e7
/model.23/cv3.0/cv3.0.1/cv3.0.1.1/conv/Conv_output_0: 3e58c2cd
/model.19/m.0/cv1/act/Mul_output_0: 3dcaee79
/model.23/cv3.0/cv3.0.1/cv3.0.1.1/act/Sigmoid_output_0: 3c010204
/model.19/m.0/cv2/conv/Conv_output_0: 3e4450c7
/model.23/cv3.0/cv3.0.1/cv3.0.1.1/act/Mul_output_0: 3e58c2cd
/model.19/m.0/cv2/act/Sigmoid_output_0: 3c010204
/model.23/cv3.0/cv3.0.2/Conv_output_0: 3f2f69b3
/model.19/m.0/cv2/act/Mul_output_0: 3e1d6913
/model.23/Concat_4_output_0: 3f2f69b3
/model.19/m.0/Add_output_0: 3e1b6f19
/model.23/Range_5_output_0: 3e193265
ONNXTRT_Broadcast_316_output: 3b810204
/model.19/Concat_output_0: 3e1b6f19
/model.23/cv3.1/cv3.1.1/cv3.1.1.0/act/Mul_output_0: 3e51efdb
/model.23/Expand_4_output_0: 3e1d3a75
/model.23/Range_2_output_0: 3e9d3a75
/model.19/cv2/conv/Conv_output_0: 3e9e7e50
/model.22/m.0/m/m.0/cv2/conv/Conv_output_0: 3de170c7
(Unnamed Layer* 525) [Constant]_output: 0
/model.23/Squeeze_1_output_0_output: 3e010204
/model.22/Split_output_0: 3df915da
/model.19/cv2/act/Sigmoid_output_0: 3c0101ee
/model.22/m.0/cv1/conv/Conv_output_0: 3dac9b53
/model.23/Expand_2_output_0: 3e9f3e7d
/model.23/Constant_23_output_0_output: 0
/model.23/Constant_24_output_0_output: 3c010204
/model.23/Reshape_17_output_0: 3e1d3a75
/model.23/Add_5_output_0: 3e010204
ONNXTRT_ShapeShuffle_314_output: 3c010204
(Unnamed Layer* 665) [Constant]_output: 0
/model.23/Add_11_output_0: 3e0abdb5
/model.23/ConstantOfShape_2_output_0: 0
/model.22/m.0/m/m.1/cv1/act/Sigmoid_output_0: 3c0101fb
/model.23/Range_output_0: 3f1f3e7d
ONNXTRT_ShapeShuffle_147_output: 3c010204
/model.23/Reshape_2_output_0: 3ca60994
/model.23/Reshape_14_output_0: 3e9f3e7d
ONNXTRT_ShapeShuffle_304_output: 3c010204
/model.22/m.0/m/m.1/cv2/conv/Conv_output_0: 3de1cb97
/model.22/m.0/cv1/act/Sigmoid_output_0: 3c010148
/model.22/m.0/cv2/conv/Conv_output_0: 3e06eb44
/model.23/ConstantOfShape_1_output_0: 0
/model.23/Range_1_output_0: 3f1f3e7d
ONNXTRT_ShapeShuffle_157_output: 3c010204
/model.23/cv3.2/cv3.2.0/cv3.2.0.1/act/Sigmoid_output_0: 3c0101e8
/model.19/cv2/act/Mul_output_0: 3dcf84fb
/model.23/Reshape_3_output_0: 3f2f69b3
/model.23/Constant_25_output_0_output: 3b810204
ONNXTRT_Broadcast_160_output: 3b810204
/model.23/Reshape_7_output_0: 3f204081
ONNXTRT_Broadcast_162_output: 3b810204
/model.23/Reshape_6_output_0: 3f204081
/model.22/m.0/cv1/act/Mul_output_0: 3dac9a57
/model.20/conv/Conv_output_0: 3e055532
/model.23/cv4.1/cv4.1.0/conv/Conv_output_0: 3dff0300
/model.23/cv2.1/cv2.1.0/conv/Conv_output_0: 3dab2277
/model.23/cv3.1/cv3.1.0/cv3.1.0.0/conv/Conv_output_0: 3e37c9fe
(Unnamed Layer* 396) [Constant]_output: 0
ONNXTRT_ShapeShuffle_165_output: 0
/model.23/ConstantOfShape_output_0: 0
/model.23/Mul_7_output_0: 3d159f05
/model.23/Mul_4_output_0: 3cc3d4d1
/model.23/cv3.1/cv3.1.1/cv3.1.1.0/conv/Conv_output_0: 3e51efdb
/model.23/Concat_28_output_0: 3d13fda7
/model.23/Reshape_8_output_0: 3f204081
/model.23/Reshape_9_output_0: 3f204081
/model.20/act/Sigmoid_output_0: 3c010204
/model.23/cv4.1/cv4.1.0/act/Sigmoid_output_0: 3c0101fb
/model.23/cv2.1/cv2.1.0/act/Sigmoid_output_0: 3c010135
/model.23/cv3.1/cv3.1.0/cv3.1.0.0/act/Sigmoid_output_0: 3c010204
/model.23/Squeeze_output_0_output: 3d810204
ONNXTRT_Broadcast_170_output: 3d810204
/model.23/Add_2_output_0: 3d810204
/model.23/cv2.2/cv2.2.2/Conv_output_0: 3ddcffe3
/model.20/act/Mul_output_0: 3e055532
/model.23/cv4.1/cv4.1.0/act/Mul_output_0: 3ddcb8a4
/model.23/cv2.1/cv2.1.0/act/Mul_output_0: 3dab2164
/model.23/cv3.1/cv3.1.0/cv3.1.0.0/act/Mul_output_0: 3e2e58ac
/model.23/Range_4_output_0: 3e193265
/model.23/Reshape_20_output_0: 3e1d3a75
/model.23/Split_2_output_0: 3db0df76
/model.23/Reshape_5_output_0: 3e831c41
/model.23/Reshape_18_output_0: 3e1d3a75
/model.23/Concat_10_output_0: 3f2f69b3
/model.23/Concat_29_output_0: 3f20fdc2
/model.23/Sub_2_output_0: 3cf79179
/model.22/cv1/act/Mul_output_0: 3df915da
/model.23/Unsqueeze_12_output_0: 3e1d3a75
/model.23/Expand_output_0: 3f204081
/model.23/cv3.2/cv3.2.1/cv3.2.1.0/act/Sigmoid_output_0: 3c010204
/model.23/dfl/Softmax_output: 3c00f15b
/model.23/dfl/Transpose_output_0: 3e2324de
/model.23/Expand_3_output_0: 3e9f3e7d
/model.23/Reshape_19_output_0: 3e1d3a75
ONNXTRT_Broadcast_276_output: 3b010204
/model.23/Reshape_16_output_0: 3e1d3a75
ONNXTRT_Broadcast_236_output: 3b810204
/model.23/Reshape_12_output_0: 3e9f3e7d
/model.23/cv3.2/cv3.2.2/Conv_output_0: 3e831c41
/model.23/Expand_1_output_0: 3f204081
/model.21/Concat_output_0: 3e055532
/model.23/cv4.1/cv4.1.1/conv/Conv_output_0: 3dd01f04
/model.23/cv2.1/cv2.1.1/conv/Conv_output_0: 3e906a36
/model.23/cv3.1/cv3.1.0/cv3.1.0.1/conv/Conv_output_0: 3e0219d9
/model.23/Unsqueeze_6_output_0: 3f204081
/model.23/Unsqueeze_7_output_0: 3f204081
/model.22/cv1/conv/Conv_output_0: 3df915de
/model.23/cv4.1/cv4.1.1/act/Sigmoid_output_0: 3bfd18d9
/model.23/cv2.1/cv2.1.1/act/Sigmoid_output_0: 3c010204
/model.23/cv3.1/cv3.1.0/cv3.1.0.1/act/Sigmoid_output_0: 3c010204
/model.23/Concat_14_output_0: 3f204081
/model.22/cv1/act/Sigmoid_output_0: 3c010202
/model.23/cv4.1/cv4.1.1/act/Mul_output_0: 3cf95783
/model.23/cv2.1/cv2.1.1/act/Mul_output_0: 3e906a36
/model.23/cv3.1/cv3.1.0/cv3.1.0.1/act/Mul_output_0: 3e0219d9
/model.23/Reshape_10_output_0: 3f204081
